TRT-8201-EntropyCalibration2
input_1:0: 40000889
StatefulPartitionedCall/model/conv1/Conv2D__6:0: 40000889
StatefulPartitionedCall/model/conv1_bn/FusedBatchNormV3:0: 3d49c60a
StatefulPartitionedCall/model/conv1_relu/Relu6:0: 3d418f1e
StatefulPartitionedCall/model/conv_dw_1_bn/FusedBatchNormV3:0: 3da1cb21
StatefulPartitionedCall/model/conv_dw_1_relu/Relu6:0: 3d418f1e
StatefulPartitionedCall/model/conv_pw_1_bn/FusedBatchNormV3:0: 3e371134
StatefulPartitionedCall/model/conv_pw_1_relu/Relu6:0: 3d418f1e
StatefulPartitionedCall/model/conv_pad_2/Pad:0: 3d418f1e
StatefulPartitionedCall/model/conv_dw_2_bn/FusedBatchNormV3:0: 3d3ca389
StatefulPartitionedCall/model/conv_dw_2_relu/Relu6:0: 3d402449
StatefulPartitionedCall/model/conv_pw_2_bn/FusedBatchNormV3:0: 3db57a9a
StatefulPartitionedCall/model/conv_pw_2_relu/Relu6:0: 3d418f1e
StatefulPartitionedCall/model/conv_dw_3_bn/FusedBatchNormV3:0: 3e212dec
StatefulPartitionedCall/model/conv_dw_3_relu/Relu6:0: 3d418f1e
StatefulPartitionedCall/model/conv_pw_3_bn/FusedBatchNormV3:0: 3e20c97d
StatefulPartitionedCall/model/conv_pw_3_relu/Relu6:0: 3d418f1e
StatefulPartitionedCall/model/conv_pad_4/Pad:0: 3d418f1e
StatefulPartitionedCall/model/conv_dw_4_bn/FusedBatchNormV3:0: 3d9c702f
StatefulPartitionedCall/model/conv_dw_4_relu/Relu6:0: 3d418f1e
StatefulPartitionedCall/model/conv_pw_4_bn/FusedBatchNormV3:0: 3dc8e8fe
StatefulPartitionedCall/model/conv_pw_4_relu/Relu6:0: 3d418f1e
StatefulPartitionedCall/model/conv_dw_5_bn/FusedBatchNormV3:0: 3da128be
StatefulPartitionedCall/model/conv_dw_5_relu/Relu6:0: 3d418f1e
StatefulPartitionedCall/model/conv_pw_5_bn/FusedBatchNormV3:0: 3dbdbb84
StatefulPartitionedCall/model/conv_pw_5_relu/Relu6:0: 3d418f1e
StatefulPartitionedCall/model/conv_pad_6/Pad:0: 3d418f1e
StatefulPartitionedCall/model/conv_dw_6_bn/FusedBatchNormV3:0: 3dad166d
StatefulPartitionedCall/model/conv_dw_6_relu/Relu6:0: 3d418f1e
StatefulPartitionedCall/model/conv_pw_6_bn/FusedBatchNormV3:0: 3da91458
StatefulPartitionedCall/model/conv_pw_6_relu/Relu6:0: 3d418f1e
StatefulPartitionedCall/model/conv_dw_7_bn/FusedBatchNormV3:0: 3e06c48e
StatefulPartitionedCall/model/conv_dw_7_relu/Relu6:0: 3d418f1e
StatefulPartitionedCall/model/conv_pw_7_bn/FusedBatchNormV3:0: 3d93f33b
StatefulPartitionedCall/model/conv_pw_7_relu/Relu6:0: 3d418f1e
StatefulPartitionedCall/model/conv_dw_8_bn/FusedBatchNormV3:0: 3dc1d16f
StatefulPartitionedCall/model/conv_dw_8_relu/Relu6:0: 3d418f1e
StatefulPartitionedCall/model/conv_pw_8_bn/FusedBatchNormV3:0: 3d91cac3
StatefulPartitionedCall/model/conv_pw_8_relu/Relu6:0: 3d418f1e
StatefulPartitionedCall/model/conv_dw_9_bn/FusedBatchNormV3:0: 3da7e2a4
StatefulPartitionedCall/model/conv_dw_9_relu/Relu6:0: 3d418f1e
StatefulPartitionedCall/model/conv_pw_9_bn/FusedBatchNormV3:0: 3dcc19dd
StatefulPartitionedCall/model/conv_pw_9_relu/Relu6:0: 3d418f1e
StatefulPartitionedCall/model/conv_dw_10_bn/FusedBatchNormV3:0: 3da940b8
StatefulPartitionedCall/model/conv_dw_10_relu/Relu6:0: 3d418f1e
StatefulPartitionedCall/model/conv_pw_10_bn/FusedBatchNormV3:0: 3dac2289
StatefulPartitionedCall/model/conv_pw_10_relu/Relu6:0: 3d418f1e
StatefulPartitionedCall/model/conv_dw_11_bn/FusedBatchNormV3:0: 3db6d6d6
StatefulPartitionedCall/model/conv_dw_11_relu/Relu6:0: 3d418f1e
StatefulPartitionedCall/model/conv_pw_11_bn/FusedBatchNormV3:0: 3daf97f5
StatefulPartitionedCall/model/conv_pw_11_relu/Relu6:0: 3d418f1e
StatefulPartitionedCall/model/conv_pad_12/Pad:0: 3d418f1e
StatefulPartitionedCall/model/conv_dw_12_bn/FusedBatchNormV3:0: 3d339aec
StatefulPartitionedCall/model/conv_dw_12_relu/Relu6:0: 3d33c387
StatefulPartitionedCall/model/conv_pw_12_bn/FusedBatchNormV3:0: 3dd7d1f6
StatefulPartitionedCall/model/conv_pw_12_relu/Relu6:0: 3d418f1e
StatefulPartitionedCall/model/conv_dw_13_bn/FusedBatchNormV3:0: 3dd0c4aa
StatefulPartitionedCall/model/conv_dw_13_relu/Relu6:0: 3d409d3a
StatefulPartitionedCall/model/conv_pw_13_bn/FusedBatchNormV3:0: 3e910aed
StatefulPartitionedCall/model/conv_pw_13_relu/Relu6:0: 3d418f1e
StatefulPartitionedCall/model/conv_pw_13_bn/FusedBatchNormV3__220:0: 3d418f1e
StatefulPartitionedCall/model/global_average_pooling2d/Mean:0: 3d1003a1
(Unnamed Layer* 83) [Shuffle]_output: 3d1003a1
(Unnamed Layer* 84) [Fully Connected]_output: 3e057d0a
StatefulPartitionedCall/model/dense/MatMul:0: 3e057d0a
(Unnamed Layer* 89) [Constant]_output: 37f102b7
(Unnamed Layer* 90) [Shuffle]_output: 37f102b7
StatefulPartitionedCall/model/dense/BiasAdd:0: 3e057f76
Identity:0: 3c03f531
