TRT-8201-EntropyCalibration2
input_1:0: 40000889
StatefulPartitionedCall/model/conv1/Conv2D__6:0: 40000889
StatefulPartitionedCall/model/conv1_bn/FusedBatchNormV3:0: 3d3c3c2c
StatefulPartitionedCall/model/conv1_relu/Relu6:0: 3d418f1e
StatefulPartitionedCall/model/conv_dw_1_bn/FusedBatchNormV3:0: 3d7467ca
StatefulPartitionedCall/model/conv_dw_1_relu/Relu6:0: 3d418f1e
StatefulPartitionedCall/model/conv_pw_1_bn/FusedBatchNormV3:0: 3e7aa41e
StatefulPartitionedCall/model/conv_pw_1_relu/Relu6:0: 3d418f1e
StatefulPartitionedCall/model/conv_pad_2/Pad:0: 3d418f1e
StatefulPartitionedCall/model/conv_dw_2_bn/FusedBatchNormV3:0: 3e8ecdf4
StatefulPartitionedCall/model/conv_dw_2_relu/Relu6:0: 3d418f1e
StatefulPartitionedCall/model/conv_pw_2_bn/FusedBatchNormV3:0: 3dfe60cf
StatefulPartitionedCall/model/conv_pw_2_relu/Relu6:0: 3d418f1e
StatefulPartitionedCall/model/conv_dw_3_bn/FusedBatchNormV3:0: 3e5b9f2b
StatefulPartitionedCall/model/conv_dw_3_relu/Relu6:0: 3d418f1e
StatefulPartitionedCall/model/conv_pw_3_bn/FusedBatchNormV3:0: 3e80fcd0
StatefulPartitionedCall/model/conv_pw_3_relu/Relu6:0: 3d418f1e
StatefulPartitionedCall/model/conv_pad_4/Pad:0: 3d418f1e
StatefulPartitionedCall/model/conv_dw_4_bn/FusedBatchNormV3:0: 3d94f468
StatefulPartitionedCall/model/conv_dw_4_relu/Relu6:0: 3d418f1e
StatefulPartitionedCall/model/conv_pw_4_bn/FusedBatchNormV3:0: 3dbc5483
StatefulPartitionedCall/model/conv_pw_4_relu/Relu6:0: 3d418f1e
StatefulPartitionedCall/model/conv_dw_5_bn/FusedBatchNormV3:0: 3d9b3886
StatefulPartitionedCall/model/conv_dw_5_relu/Relu6:0: 3d4054a9
StatefulPartitionedCall/model/conv_pw_5_bn/FusedBatchNormV3:0: 3dc18bb9
StatefulPartitionedCall/model/conv_pw_5_relu/Relu6:0: 3d418f1e
StatefulPartitionedCall/model/conv_pad_6/Pad:0: 3d418f1e
StatefulPartitionedCall/model/conv_dw_6_bn/FusedBatchNormV3:0: 3e08fb7a
StatefulPartitionedCall/model/conv_dw_6_relu/Relu6:0: 3d418f1e
StatefulPartitionedCall/model/conv_pw_6_bn/FusedBatchNormV3:0: 3d90f1ba
StatefulPartitionedCall/model/conv_pw_6_relu/Relu6:0: 3d418f1e
StatefulPartitionedCall/model/conv_dw_7_bn/FusedBatchNormV3:0: 3dea58f4
StatefulPartitionedCall/model/conv_dw_7_relu/Relu6:0: 3d418f1e
StatefulPartitionedCall/model/conv_pw_7_bn/FusedBatchNormV3:0: 3d7dff5a
StatefulPartitionedCall/model/conv_pw_7_relu/Relu6:0: 3d418f1e
StatefulPartitionedCall/model/conv_dw_8_bn/FusedBatchNormV3:0: 3dbc61f2
StatefulPartitionedCall/model/conv_dw_8_relu/Relu6:0: 3d418f1e
StatefulPartitionedCall/model/conv_pw_8_bn/FusedBatchNormV3:0: 3d754f2d
StatefulPartitionedCall/model/conv_pw_8_relu/Relu6:0: 3d418f1e
StatefulPartitionedCall/model/conv_dw_9_bn/FusedBatchNormV3:0: 3de636bc
StatefulPartitionedCall/model/conv_dw_9_relu/Relu6:0: 3d3a4891
StatefulPartitionedCall/model/conv_pw_9_bn/FusedBatchNormV3:0: 3d9c7264
StatefulPartitionedCall/model/conv_pw_9_relu/Relu6:0: 3d418f1e
StatefulPartitionedCall/model/conv_dw_10_bn/FusedBatchNormV3:0: 3d76ffb6
StatefulPartitionedCall/model/conv_dw_10_relu/Relu6:0: 3d418f1e
StatefulPartitionedCall/model/conv_pw_10_bn/FusedBatchNormV3:0: 3d9ea95d
StatefulPartitionedCall/model/conv_pw_10_relu/Relu6:0: 3d418f1e
StatefulPartitionedCall/model/conv_dw_11_bn/FusedBatchNormV3:0: 3db643c8
StatefulPartitionedCall/model/conv_dw_11_relu/Relu6:0: 3d418f1e
StatefulPartitionedCall/model/conv_pw_11_bn/FusedBatchNormV3:0: 3da76f03
StatefulPartitionedCall/model/conv_pw_11_relu/Relu6:0: 3d418f1e
StatefulPartitionedCall/model/conv_pad_12/Pad:0: 3d418f1e
StatefulPartitionedCall/model/conv_dw_12_bn/FusedBatchNormV3:0: 3d33f4c6
StatefulPartitionedCall/model/conv_dw_12_relu/Relu6:0: 3d32b973
StatefulPartitionedCall/model/conv_pw_12_bn/FusedBatchNormV3:0: 3dd76af0
StatefulPartitionedCall/model/conv_pw_12_relu/Relu6:0: 3d418f1e
StatefulPartitionedCall/model/conv_dw_13_bn/FusedBatchNormV3:0: 3d8c9004
StatefulPartitionedCall/model/conv_dw_13_relu/Relu6:0: 3d406cda
StatefulPartitionedCall/model/conv_pw_13_bn/FusedBatchNormV3:0: 3eb20666
StatefulPartitionedCall/model/conv_pw_13_relu/Relu6:0: 3d418f1e
StatefulPartitionedCall/model/conv_pw_13_bn/FusedBatchNormV3__220:0: 3d418f1e
StatefulPartitionedCall/model/global_average_pooling2d/Mean:0: 3d42c717
(Unnamed Layer* 83) [Shuffle]_output: 3d42c717
(Unnamed Layer* 84) [Fully Connected]_output: 3df9f08a
StatefulPartitionedCall/model/dense/MatMul:0: 3df9f08a
(Unnamed Layer* 89) [Constant]_output: 37f102b7
(Unnamed Layer* 90) [Shuffle]_output: 37f102b7
StatefulPartitionedCall/model/dense/BiasAdd:0: 3df9dca0
Identity:0: 3c02ee1a
